/**
  ******************************************************************************
  * @file    hgr_model_data_params.c
  * @author  AST Embedded Analytics Research Platform
  * @date    2026-03-11T01:07:30+0100
  * @brief   AI Tool Automatic Code Generator for Embedded NN computing
  ******************************************************************************
  * Copyright (c) 2026 STMicroelectronics.
  * All rights reserved.
  *
  * This software is licensed under terms that can be found in the LICENSE file
  * in the root directory of this software component.
  * If no LICENSE file comes with this software, it is provided AS-IS.
  ******************************************************************************
  */

#include "hgr_model_data_params.h"


/**  Activations Section  ****************************************************/
ai_handle g_hgr_model_activations_table[1 + 2] = {
  AI_HANDLE_PTR(AI_MAGIC_MARKER),
  AI_HANDLE_PTR(NULL),
  AI_HANDLE_PTR(AI_MAGIC_MARKER),
};




/**  Weights Section  ********************************************************/
AI_ALIGNED(32)
const ai_u64 s_hgr_model_weights_array_u64[946] = {
  0xe5d4534e2c7f5a03U, 0x7fbfd224bdcfedd2U, 0xf21f196a4d36450eU, 0xbc9fc4bb249281d0U,
  0x4275de217f633ee4U, 0xdd152b5d7f5f1237U, 0xf0f1ba417f9f544fU, 0x9742d4ba3d05b77fU,
  0x9719adec81fb8b9eU, 0xfffffcb0ffffb86bU, 0xfffffd8bfffffd6dU, 0xffffdf63fffedb9bU,
  0xfffff600fffff816U, 0xf8e50e092b0deb13U, 0xf9d20afd1c2c0417U, 0xf9f8f2f831420613U,
  0xfed10ffbfb3cc710U, 0x5e1f6e5170de702U, 0xfbf0efe6492e1bfaU, 0xffdef2e5071cfce8U,
  0x6e703ed102b04f0U, 0xf8e2fee10a7ffafbU, 0xff0d0af0d331e917U, 0x81c02d7be2f02ffU,
  0xfffbe7d7d526d7f3U, 0xff06f3eb245222fbU, 0x715e281223025e0U, 0xf7ffbff837131ad6U,
  0xf9d411f00a1d19d4U, 0x3fae2a2ff02fcb0U, 0xfee5f515260908U, 0xf81ef2f8b82dc216U,
  0xfb090a05b908840fU, 0x60a0f0c81108d08U, 0xfb12f8dd0bf80001U, 0x3edf6f8090bd503U,
  0x5fffef2fa24faffU, 0x1ebf8e823230df9U, 0xffce00040e11f6f7U, 0xfed50b013bfb2be9U,
  0x7b0d310d6c6b7f7U, 0x9c0d630f322d407U, 0xfea4ec1e422c24e2U, 0x5c7eef610350be6U,
  0xfad3e9f4235717d8U, 0xfcdbe21d2b2c0ef2U, 0x4da3110218124eaU, 0xfee0113220f212f5U,
  0x2e9172a35f22cf8U, 0xf4f6e3fb4f234ceaU, 0xfb15ed1719410bf0U, 0xf210fc2ddd4bca06U,
  0xad906f738bc3bedU, 0x8c809ec38da2cf8U, 0x9f3ed112aec2fd4U, 0xf5f912003820470cU,
  0xfaf5fb2930dd3bf8U, 0xf904263f7f917308U, 0xe7151bfac4180aU, 0xc1e03f001c3f5f2U,
  0x4ebf6d924c117f6U, 0x3091905a91a03U, 0xff12f4ef1bbf0de4U, 0xf9f400f91ed717eeU,
  0xfaeaf6144efd3f15U, 0x3f4fd077ff568f2U, 0xf5e7f0044afe52fbU, 0xfa0a1d2414e32d16U,
  0xf70113fbc9ea09f9U, 0x20ff9dba7fae6f4U, 0x10a1d21e2f21021U, 0x6ee110be6c80e03U,
  0xfc09f7f407e10beaU, 0xfefb1121aaedd417U, 0xf8ec0609d9bcfbfdU, 0xf9eaee0500810cedU,
  0x410ff15057b0111U, 0xfd1900fcc67fc919U, 0xb0bf80eed70f50fU, 0xfffcfe0f19051cffU,
  0xf613f7f6161efafbU, 0xcedf1ea21e63e01U, 0xf8f0111311371914U, 0x6f6e6f9f5fcecU,
  0xbe5f5e8010d1bf7U, 0x2dd01f10bda16daU, 0xfb0104ff05ee0df0U, 0xfcfef4f31bd00dfaU,
  0xfbdcfeeff6d00df2U, 0xfd0a01001ab71ef5U, 0xfb0e080922f81404U, 0xfdef01f2e481faf5U,
  0xfd0d0b0718c0120bU, 0x40e0f1919fd0d15U, 0x811f21509c0c5e4U, 0x4fef81a13f7e30aU,
  0xc40314fc242df7U, 0x3190215333df405U, 0xf9090607ea68d812U, 0xffebfcf513182df8U,
  0xc0509ef117fe708U, 0xf60af3f00b2d0f05U, 0x90af3dc13dd2af9U, 0x7eb0229c3cab1f5U,
  0xf917f527d9fbdc09U, 0x8f7042f072607f6U, 0xdf4fd42eb25c3f9U, 0xa06f43381d79d0cU,
  0xfdc6fa31e6b2e904U, 0xc20fd3e1b42f710U, 0xf90e093d062afd1eU, 0xf6c7fb2cfd02f9faU,
  0xf3cb0f21ede3c80eU, 0xafd13eaf3bfec02U, 0x5110d0081adb3feU, 0xfdf91d00e637bb23U,
  0x90407f3a635b20bU, 0xfc0f05ff881ec709U, 0x9d9e9cb1d3413e4U, 0x3f1efe1123921c5U,
  0xf51de4d42d7722f8U, 0xf5ed231a2d215006U, 0xfff200ef2d292bf6U, 0x30afde3392149f2U,
  0x8f7190c3b3f3d16U, 0x50709ea28f922e9U, 0x70e0fda0d965becU, 0xfbe91e163d1d500aU,
  0xf51c0b011bc23401U, 0xff0d17f23b997ffaU, 0x5ebfaf2f681fbedU, 0xfdfdfaf9100e09fdU,
  0x200f4f5151618faU, 0x3f9060b15190608U, 0xfdf8091326251908U, 0xfafe0a151e261811U,
  0x1f8f90904c2f1f7U, 0x1eefa09fabfeef9U, 0xf5f408f9e5f0f7U, 0x2e9fef3191127ebU,
  0x6fe013a4231ebU, 0xfe06f01358512efaU, 0xffe905052d812bf5U, 0x2e7fd022b861efaU,
  0x7eb001821eb0efbU, 0x7fa0406e7e9fc13U, 0xf9fefe14f8ebf50eU, 0xfa09fc1511e7fb0cU,
  0xc0bf9f22b8108f5U, 0xffc215f0ed0129dfU, 0xfd190eee4e1c4ee8U, 0xe1317ffff250524U,
  0xf6d00edcb42ff507U, 0x234f2d140e746eeU, 0xcf7301e3b472619U, 0xf7e212e83d0f4aecU,
  0x54a0afd3fac4220U, 0x17bfffffed8U, 0xfffffb13fffffb8cU, 0x1620ffffd644U,
  0xffffeb92fffffe16U, 0xffffe4ebffffffc4U, 0xfffffd63ffffd4d4U, 0xffffff11fffff34dU,
  0xffffef45ffffed8cU, 0x16fc02001efce7efU, 0x2040706e10718fbU, 0xff7f2ff36f4d4ecU,
  0xfe060b02e3fe0bffU, 0x22fdfceadc85cbb6U, 0x4ec00fdd2031701U, 0x1702fc030dfaf8f1U,
  0x8050f06ca051801U, 0x10fdf90a37fe0002U, 0x90b1108d2fd150bU, 0x1600f9fae981fbbfU,
  0xfafd02ffd5fe0507U, 0xdfc05f8f3feeae8U, 0x10f5e210df070700U, 0x9fcf4f63bf600d3U,
  0xdf8ec08d1fd0c08U, 0x9fef3bdbd9c0fbeU, 0x7c1cf0ae8fdffc0U, 0x120401c787b3e1b2U,
  0x11d90810ce04fdf7U, 0x19ffdfe92e09c500U, 0x8f501fe090612f0U, 0x18f8e50518fee216U,
  0x1701fb17e703260bU, 0xeb0015df1abbe7ebU, 0xaf5fc0efc00fcf8U, 0xe02fbea3b0eeb0fU,
  0x500f4090a070afdU, 0x17f7e6ede612f411U, 0x9fce80ef6040e12U, 0xfaff16c72a03d9f8U,
  0x5ce8114ee0bffc3U, 0x4feecdc390fe10cU, 0xfdf0dd02f10a02e3U, 0xb05dfbfd10ee30dU,
  0x2fbda05fe081301U, 0x16b9dfc02c0aed09U, 0xefdd80f0cf407f0U, 0x14f1e6ddf7fbe809U,
  0x805140206030feaU, 0x1f0c0e0c09100203U, 0x16193320170c1f01U, 0x9acedbbba00f9fbU,
  0x90fc005e5d9f3ecU, 0x8defac6c2090103U, 0x5e6dd06f0eff2ebU, 0x10071bf8d4f6f6fcU,
  0xcffe614e402020fU, 0x1c81f8f0f5fe0601U, 0x322ee9130fe20ef8U, 0xbd9fed2f0fdf604U,
  0x1717051505ddf9e5U, 0x13ec15decb01ea08U, 0xefffa0b18f10ddfU, 0xdf8cf22db14bef6U,
  0x1a18ce100ffe1a06U, 0x1103d916d62bc6eeU, 0x100ae20a110011f7U, 0xa0dec26b827c6f3U,
  0xf07d11021060bfaU, 0x8e9c526eb22d9fcU, 0xc13c9021df315ffU, 0x3f7cb23be11c9f5U,
  0xe0ed70c16fd11eaU, 0x1004f4398117c1f7U, 0x1314de0f1d0210e2U, 0xf9e11cf818d7efU,
  0x303c0fcfbf808f2U, 0x4fedd28e60ed1edU, 0x31bca01fbf9fee7U, 0x7e226aa04c4eaU,
  0xfb2ee20800fffbebU, 0xf606fd2bf40da100U, 0x18f1e01a12f307e2U, 0xd917fc18050d8cdeU,
  0xfcedb8040efb0c03U, 0xe5f0f5121c0b81efU, 0xe0eda0319e41508U, 0x13effc1a0432fc1bU,
  0xfc00c8fd0fce06f4U, 0x1070721212ef414U, 0x40bdb0c0eea14f9U, 0xbe4f8160e2ced15U,
  0x916c1050fe81720U, 0x3ff07332216ebf9U, 0x101f0f11d8d4fe1fU, 0x714f9401f35ed11U,
  0x72ffa0feafa0d2aU, 0x100df5291629f019U, 0x2126fa19fbe21f37U, 0x1df99e2b2c1681f9U,
  0xdc26f0f0020606f9U, 0x12f9cc0823209ff4U, 0xe413f8eb0e0507eeU, 0x1f0d030a0f10b4feU,
  0xfcfc000821060d05U, 0xfddc8190b03ccf7U, 0xfa0fe1fd08fd08e2U, 0xaf1d20b0606c0f3U,
  0xf5eee3fe08fb03caU, 0x1efb13200006d5f6U, 0x10f1ed190ffd11e8U, 0x5ebf331b701eaebU,
  0x1a1adf190dea00e3U, 0xbf0f921e901d7f9U, 0x190ce31911eeffccU, 0x14f41e1de603e4f7U,
  0x1f01da281ded04d7U, 0xfeedf00d240414e6U, 0x80900090df7fa15U, 0xfef1f5152b110fe3U,
  0x1015010e1ffdfd08U, 0xeafa021939160cccU, 0xd18051421fcee0aU, 0xedde0cec051b06U,
  0x706010a07f51306U, 0x6f7ed0f190c1000U, 0x12080d04fc0d02U, 0xf302ef0e3d0313f5U,
  0x315010a0aff0e0aU, 0x9f1e507d1a9928aU, 0xf607d0ff81eedde6U, 0x10f6e71322ef8bafU,
  0xfe19f005b8f303d1U, 0xf7fae31b54cac68aU, 0xf814f201f1f8f9e6U, 0xfccedfdf7f30000U,
  0x1403171a02e60804U, 0x7fde1f6deebfb03U, 0x8fe0b0b010e01f9U, 0x1820e407e80c1e07U,
  0xb070919051d19f8U, 0xf6aaeef9d2f5ebf2U, 0x1417161d06c6f0eeU, 0xf7fadcdfd5ebe4e9U,
  0xf9ee05fe0402efeeU, 0x113dffbd7faf3f2U, 0x3f301110d200afeU, 0x381ea0ae1fafc05U,
  0x1f21131808b9f9e8U, 0xfbe8e4eef5fffc03U, 0xef8fd170cf2f6dfU, 0x915e909f7090202U,
  0xf130511171d0bfbU, 0x21f0d867093bbd3eU, 0x71cf8fb3ef930faU, 0x3af5f5620a4ec945U,
  0x1715021e30075dc4U, 0x3b00e47c14399658U, 0x113fcc2348d82bbdU, 0x26f7fa653c22d404U,
  0xf52ad40e0dd620f6U, 0x37fcf65f1844c51aU, 0x303ecc0702eb1db4U, 0x48deda59e038a50aU,
  0x73ab700f9ec349bU, 0x5dc0b7f480bb802U, 0x675d918ebf316f3U, 0xb06dc63f231ac0dU,
  0x2147e707fdd11abaU, 0x42d9c476f611a329U, 0x2943cf09f5bd2fa0U, 0x8060c1b0131e819U,
  0xd13c80f0efc10f3U, 0x18080a2af834ec27U, 0x1a2bc9171dee18c8U, 0x12ecf6f8fa19d513U,
  0x3fa810914fc0fb8U, 0x80f07300016f610U, 0x1624ee23f6fd02d4U, 0x18120318f619e708U,
  0x1219c712f2e7179cU, 0xadd02082003d001U, 0xf512c305ef05fa96U, 0x9170c1beb1beb0dU,
  0xfe14cf0ee9f400c2U, 0x13ee05210013e90dU, 0xf110a501e4d608a9U, 0x8c0ea0b23fadcffU,
  0xe42fb1f3d90007a5U, 0xedec010a1ed405f6U, 0xf09f9122dbaf418U, 0xe1edfd1113e2f2faU,
  0x90ff4090ed2f20aU, 0xeff30a1c0eea1e04U, 0x211bf027ede10f16U, 0xfaedfdfb9cf11bfbU,
  0xfef2a90a01d5f9feU, 0xf4fafa08c3030bf1U, 0xf4f0abfbe8e5f109U, 0xfdfc0a20110325f3U,
  0x1115b011f001011dU, 0x10c30119e3020f00U, 0xad9b10dffc903d4U, 0xddb060f81060f01U,
  0x4e8ae0eebe505bfU, 0xaeb06fd9a00120fU, 0xfe0fb504e7140bb1U, 0xca08f406ffd7e981U,
  0xfb07fdff0206f80bU, 0xf9fffd0514e1eeb5U, 0x1203fb110cf701f8U, 0xf1fb0bf21fd3e697U,
  0xeebf10deaf8ebe3U, 0x70bf702f1e6e79aU, 0x6ffeb07d0071b01U, 0x8ff010501d9e79bU,
  0x1407f319d9f904efU, 0xfdf503f0f4cfe4aaU, 0x19faf40edef7feedU, 0x20ffa1700e9e8bcU,
  0x17062427b20d0e13U, 0xd0509280efbe5b8U, 0x22151227bdfe21fdU, 0x8fc070615f8e0c8U,
  0x1cfd0c22e3f80a0bU, 0xfbeb01050efe20feU, 0xd0b050d16e4f20aU, 0xf9f8fc0d05fb04f8U,
  0xd0a050d05f2000aU, 0xeffcff0305f905f2U, 0x1005001306f60708U, 0xfff7f303e5fd2a0aU,
  0x40afe0b00ec0306U, 0x9fafe06f2082606U, 0x80bfc1001f21007U, 0xfefd0404fb0922ffU,
  0x909fc0e03f60f02U, 0xdef8fb07e5dbf3b4U, 0x804df08d2f0e7f8U, 0xef01020ed5fec59aU,
  0xa10e60fd1f2ff01U, 0xe900feffadf19e81U, 0x11e006c3f6ffedU, 0x8219e60e3bf9c881U,
  0xf51824fb00e6ca13U, 0xa012ef14380be5b2U, 0xf1150afc0dcfb013U, 0x8edbf917501aea9eU,
  0xd90afcec03bd8df7U, 0xc2f4e6111f06e8edU, 0x151e0b080ce7eb13U, 0xc3d1dfff160cfe03U,
  0xfd0ff2ffffdde603U, 0xc3d0ed05250a0f14U, 0xfd05ea05f9baeffaU, 0xf9f9ea1226121e12U,
  0x171503151404101dU, 0x1dee005150d2e15U, 0x103f20affef0712U, 0xce5f0073027490cU,
  0x805ee11f6d30a12U, 0xb7caf3ba02c3df81U, 0xdcaa62d7b9c685faU, 0xedebedf02e1302edU,
  0xe5e632e707e8d6f8U, 0xf712fd27552e1eecU, 0xf162a0c181a1425U, 0xe5a6ecfa25f100fdU,
  0x12d702fafdd8fbffU, 0xeebeddfd1ff90ff9U, 0x8fe060601ef01f4U, 0xfaf0e31b4e131a0fU,
  0x17212110131c221bU, 0x203ce61b1804f3ddU, 0x121df6178ce7e30bU, 0x4dce4091b0017e5U,
  0xfd0fec0bc5d5e5ffU, 0x4ddd2133c28180eU, 0x422120513141f18U, 0xdcdac5f631cdd6d3U,
  0xd4fe3cc4fddbe912U, 0x716d51d0cddfaf0U, 0x71e380cf9fb00e9U, 0xe601ee5b5703c6baU,
  0x254839312dfe0218U, 0xa9bab28452a1f10U, 0x5200f111aca0de9U, 0xae1b21834ff22f9U,
  0x112fe020be30dd0U, 0xe706d84b6e1840ffU, 0x1851142417010722U, 0x23edd032133012e2U,
  0x133d2d2dae81c3e6U, 0xf4dbc40bfe10ffd7U, 0xf518f104cebecbccU, 0xafdea31830e7c7e6U,
  0xef2a33044f02fb06U, 0x250209f7f5eef101U, 0x10fcf61aef081f08U, 0x1bfaffe6eadcbafbU,
  0x7f5fa14e00213f3U, 0x1cf402a9d181a0acU, 0xeaca713b1fe048cU, 0x170704f6eef7dfefU,
  0x502f716cd020efeU, 0xefd00ed01f1d3e5U, 0x6fbf810c6fb0e05U, 0xefd02e00e9ec495U,
  0x13decd1dbcff03ccU, 0x7040907e9fac8d9U, 0x802e30ec206fa04U, 0xfffbf700fadce2c5U,
  0xbffe212a5fbfb0eU, 0xfcfafffdf7b6f1afU, 0x10edbb17affbdaeaU, 0x5f702e8f4c7f5ecU,
  0x9d7990abaf8040bU, 0x4f10407f3e3fffaU, 0xff3b508daf805f8U, 0xfdf90125d1f0fcfdU,
  0xb16d60be60307f2U, 0x15f00004e7d1f204U, 0x11f2ab15bbf41517U, 0xcf8ff0ef7defb06U,
  0xe05bf0fdff10bfcU, 0x5030216f4dff9f7U, 0xb07d40cce0105f2U, 0xdf3f7ed81d7e807U,
  0xafab806e8f21603U, 0x2f3fd0de1ddf310U, 0xb0cc709fff70cfbU, 0xf706052119d4eaf9U,
  0x1313ed14ef040c0aU, 0xcd0cf9f7f981c6b2U, 0xcefd19d9dc09e30aU, 0x50bf2131dd1f2dbU,
  0xe70430e9e2fff4f9U, 0x1111fe033dfb17e3U, 0xfcf424fefe0f10f0U, 0xff0d8eeee01fb15U,
  0xf2e913f115031302U, 0x11f3e00b16f20108U, 0xc11040d070de3U, 0x13f9f91e53041505U,
  0x130d201918091210U, 0x1cd0ccde0c0d0c09U, 0xf5c4f0f5d6ea03faU, 0xee1ebdf0ffa13ffU,
  0xfbe2f6ffedef05e0U, 0x5e906063bee13f2U, 0xa0d1313f9fd0c19U, 0x1805f9e78ae7b9feU,
  0xddcdb0ff8003122U, 0x16f9fbf581d4ba06U, 0x1adfcf19dcf92509U, 0xfc0619efd0e1e1U,
  0x1a02d518b903120fU, 0x200606f8afe6acffU, 0x7efde1501f82401U, 0x5f8f9fee3cbadfaU,
  0x5f6f007d6fa1505U, 0xfffaf80f17ddf0e9U, 0xf090608ce081d0dU, 0x14ff07e3f6e9a2f2U,
  0xf9f0e50cf6ed0cd0U, 0x3ebe7f3f0d492e5U, 0xf60203f6d6f812fbU, 0xeefae61913d8e7c7U,
  0x41817069708fa17U, 0xf31c032213fd81d4U, 0x1a0dfb1c1ffe25fbU, 0xdc140818290489d5U,
  0xa1002070bf71a01U, 0xe710111212f3a9d7U, 0x1118020b12e91609U, 0x18fde61def310505U,
  0xff21c70a18da1ceaU, 0x16e8e41e0723070bU, 0xf024d4f110ea1c10U, 0x9efee0dfe15fa07U,
  0x107affbfde21516U, 0x509da1f010603f4U, 0x72bebfdc4df0303U, 0x8fee03b14251700U,
  0xff2af005e7f31923U, 0x14fde62d032816fdU, 0x1523f30ee6f12841U, 0xae6e7f80f06e507U,
  0x411c40cf502fceaU, 0xcf1ec06fc03f80aU, 0x720e310010b13f5U, 0x1102f92009040a10U,
  0x1731021b03151a09U, 0x1d8f3eaf508e303U, 0x70fdb09e9fcf6efU, 0x3e3f3f7130af406U,
  0xf8eee8f2f0000202U, 0xd06eefefaf90800U, 0xff06fafedf131029U, 0xecae5810000da18U,
  0xfe2ab4f009fc02eaU, 0x10b3dbbf51fee50bU, 0x143d3e8fffa0e0aU, 0xafdddb6def0ecfaU,
  0x6edcfedf21c17feU, 0x10606d9f393e3c0U, 0xf8b1b3f3d00513faU, 0x12f6fed34eb8e4cdU,
  0xf6aeaef3ddfd17e9U, 0x8f802c05581dc9cU, 0x9293faba0307e9U, 0x1e0403dbb8b1e8ddU,
  0xfdcd80cb0030dfdU, 0x19f802ea16c3e7d1U, 0xfd6bf0ecefa1002U, 0x1fc05e41598dea0U,
  0xfd0b611cb0007fbU, 0x8060efcdfdddce1U, 0x1ef0ec20d603fd09U, 0xb0006f9eee5e0feU,
  0x18edd71603fe0d11U, 0x8ff07eaeee1e0faU, 0x13ddc6140c021e0dU, 0xf070df6e60dfe11U,
  0x109cb0c01090ed9U, 0x4fe090bea08f50cU, 0xfd2ccf0bebfb09a5U, 0xeef80003fbf7fffcU,
  0xf512caf8cc02f581U, 0x50210010f09fd04U, 0xcff0903ff00e5U, 0xfcf707050b03f1faU,
  0xfb16fe02fefeffdcU, 0xedf6fa0b140306efU, 0xf912f6fbfc0402dbU, 0x8fe0f0c0804f40aU,
  0x30f0d0d03fa02e8U, 0xf0ff050904f401U, 0x6110806fef4fde6U, 0xf3f600111bfdf0f6U,
  0x3110806fd06f5f5U, 0xfe06e814161bb3f4U, 0xe191307f00b0202U, 0xf7f4da14242c9cfeU,
  0x713100aebfff800U, 0x8f7d822032381dbU, 0x101104fbfdfbfcU, 0x804a727bd03bb01U,
  0x615effe00050bc1U, 0xafcb23bd405c5f9U, 0x172bf40207fc03d9U, 0x5f5ca44bf03a3f5U,
  0xe29f90203f5fedaU, 0x3fab746b408dcffU, 0x1331f30107060905U, 0x2f8ab34aa0aebf7U,
  0x1428e60009f805e1U, 0xff8b62a8a05e4f1U, 0x1222ed080dfb05b1U, 0x9e4d6ce391b1c0fU,
  0x402f70b14fa0dfeU, 0xfdf2e0c6f3f9dcf3U, 0x10f3e413fbfc00dfU, 0x13f9f2f2e302cf06U,
  0x21ff0e2001f810a9U, 0x6cee4b2f2090608U, 0x4f3dffdfaf40819U, 0xfeede2b48108ec02U,
  0x11d8dd0cf1fd0302U, 0x17faf9ecc105ea09U, 0x28faf52001ed0ed2U, 0x6c8e3aeaf08fbf8U,
  0x12dbc205f2ee0d38U, 0xdf3feebe90df602U, 0x28f2cc1cf6040e00U, 0xf010efd0e0df4ffU,
  0x28fbca2907f406efU, 0xe3afe92b1e01160bU, 0x1b58000b08ef0021U, 0xe2f90e1d46fc00ffU,
  0x25a0b08f8f3f2ffU, 0xe3af06043df70b1fU, 0xe44722e21ccbd8d6U, 0xe2c7df2929ff4406U,
  0x153e1303f4dbfb36U, 0xe7f3fc0433f02c00U, 0xfd170e0900f0081cU, 0xf299f1dc36e53319U,
  0xd5f205e10b98d9ddU, 0xe7f5d5111f103c1dU, 0x1f4521080e041550U, 0xf2e0ec002705511eU,
  0x1314021b24e11449U, 0xe2cf08fc2ae74d17U, 0xfefce7ecfb81f603U, 0xf2f3e6edf9f9f6e5U,
  0xf9ea00ebf7ecf2U, 0xf8f5ed080508f9ffU, 0xe0cfe06edfd09f6U, 0xfbf919fbfef60dU,
  0x1619041504f90cfeU, 0xecf7ecea9cf2e7eeU, 0x5e2f600e9f8e8f1U, 0xfdfbec04d6090200U,
  0x5fb0c05fd0409ebU, 0x403f206d8faed04U, 0xa090b080d0111e8U, 0xf703fdfa81dee7d3U,
  0x14f6fa14d4fcf501U, 0x802f913c910fbf8U, 0x15050711030716dfU, 0xfd0cfd1d0104f7f4U,
  0x90f160b0d0808ffU, 0x5fef0f715fbfbfeU, 0xc681c9b60b0205e7U, 0xafff90d28eff8f0U,
  0xd8edefd1f90405feU, 0x5ffe901130706f2U, 0xe2f602dbf107fb19U, 0x400f708120302fbU,
  0x805010505fd0407U, 0x4ff02040e050dfcU, 0x5060701fffdff0aU, 0x8fff702120d0d01U,
  0x40607fe0704030cU, 0x6fbf20a12040c03U, 0x212f5ff04fc07faU, 0xbfbfbfb0a010a01U,
  0x4fdfd05fe07fdU, 0x13f9f1f90e0d0d05U, 0xfd08fcfc09020efdU, 0x98ecbf00e62d1aU,
  0x1aeac31802c105ddU, 0x1fb4ccaeefe81423U, 0x1ef31424c3dbf3dcU, 0x2ed9fee81e0b1622U,
  0x2f254248faf417f4U, 0xe2acedb0a3c2b4ecU, 0x20081e1bfdd808adU, 0xe6d3cbbbb7c998f5U,
  0x15ee2114090dff95U, 0xf7dffbdff1d4bf11U, 0x240b482f2305ffcaU, 0x5b6fde70df2ea0eU,
  0x3b38f03333f93b90U, 0xfaeff0decddbd3faU, 0x3318023c12233281U, 0xdef4000f13e0bfeaU,
  0x293c2655200107dfU, 0x6ffec135b10aec8U, 0x2b010224d6030dfeU, 0xaf1e11b5b2f9bd7U,
  0x1a1d0d15dd0a21fbU, 0x3ffca011e10b7f7U, 0xf90d10f9f40e1dfaU, 0xf5f9d3ff1403cee6U,
  0x192af614d80301e5U, 0x10f1a1edcd2af107U, 0x1214ddfadefc1bd0U, 0xbfbb4f6fd1e2300U,
  0x3d781f6ce0516f0U, 0xfbfdec15ed06e0f6U, 0x2308da15e8040ac6U, 0x10fdeb254b2acaf4U,
  0x1110c90addfc1d0fU, 0xf7f8e719570cccd8U, 0xd200712dd0a1d2dU, 0xafd500000cc0d8a6U,
  0x41150061dbc1f381U, 0xd0b2ffdce8d2fbbaU, 0x39dbf031ccb8ddb3U, 0xdad70ffc3d162f19U,
  0x3e0f1c3ff9d62ecdU, 0xe1f6c23ec2fcc6ecU, 0x2430e15b01e41fbaU, 0xe2bfab08b50dc6fdU,
  0xd02c51d14ff0fcbU, 0x1fc4e036f62de22bU, 0x9390b4131fa41f8U, 0x4ad5bf4a473c0e2cU,
  0x24690c2b37fe588eU, 0x3ed8b401ff19eb2dU, 0xf117072327ef2993U, 0x57c4b245f4702752U,
  0x1d5036243d0950e5U, 0x10f00000068U, 0xfffffdbcffffff85U, 0xfffffe9affffff00U,
  0xffffff95ffffff82U, 0xfffffe93fffffec2U, 0x46fffffe25U, 0xfffffcf70000002fU,
  0xfffffcb5fffffdb5U, 0x6100000058U, 0x76fffffe39U, 0xfffffff4fffffd3dU,
  0xd4000000b8U, 0xfffffe84fffffd5dU, 0xfffffe52fffffdf3U, 0xfffffd0affffff8fU,
  0xfffffb0afffffd7fU, 0xcd09c30de9e60a27U, 0xefcbcbd802811124U, 0xe7910104ce10048U,
  0x1122dae8e11df403U, 0xc75d1f8a9b218117U, 0x5b1d47b9fb8eeafaU, 0xc9b206d21d8eda60U,
  0xf5fb889b98e71ee3U, 0xfe141c1ee937f314U, 0x1c26e71e1d70cbe5U, 0xcc321a158127d6d5U,
  0x9fd49def9c311d8U, 0xf0f6c8f2d6fe0331U, 0x10f8a3f6f6810513U, 0x2a35effb5ffb2f41U,
  0x4051ceecffd0408U, 0x2a3ce8e5814edc1dU, 0x3a4dbd07f307c7c7U, 0x2d0bf3f4ae450e07U,
  0x13fa5f14edbd27efU, 0xfadff7ee33f5d5ffU, 0x1469e8c1b263f317U, 0x15d781e9382c6605U,
  0xdd19e22376ed263dU, 0x8e9cc0fe5f3ff14U, 0xf5ee81fcfeaefa17U, 0x301dfb006a0c244bU,
  0x1e5e4fd00f1c3feU, 0xf0e6290608f3f4e5U, 0xe054a33d0572021dU, 0x8990ff198120bf0cU,
  0xda15ec1756f5ee2dU, 0xa50cc32233c2232fU, 0xaf9024f4fdae1135U, 0xe2088110a6b915bcU,
  0x45bf0eb470d5e22U, 0x2a1a24d9cb5008ddU, 0x2a37f6f0ee19fff7U, 0x278110cdb44cd288U,
  0xddfa2fe35efa41dcU, 0xdfd1041d43e1dd27U, 0x12510bc6a94d0406U, 0x14c581e525195e10U,
  0xe108fd1f70ea3548U, 0xdbf2fd26f3f9ef0eU, 0x19a9e9307fd60dU, 0xb62afc0bc7053e54U,
  0xcf7e502e4f0f61bU, 0x93b3ef3a4ed62601U, 0x9cb82cdbf945312fU, 0xe1f3c64a74ade9c3U,
  0xf53e04f37f2e1e02U, 0x9371114d13efcf6U, 0xb16f4062c6cc1ecU, 0xd2143c04873ec4caU,
  0x110f7fbfdfcb2cd1U, 0xee0df71bf3ec09f4U, 0xf0c4e0ff1b191a0dU, 0xf158121281efb1c2U,
  0x631f8f0071805f8U, 0xdb23ed0ceb320c02U, 0xd17e61c287fd3f1U, 0xc53e30278715b9e7U,
  0x17184fcbf0ca09f0U, 0xf9f0260a0bf300f6U, 0xdb010725f71c190eU, 0xd1e1fe0a890881f0U,
  0xfefcd80c240ae70cU, 0x94b7e52443a91d10U, 0x91b22f04fe412c43U, 0xf7e5c3327fb9f0e4U,
  0x63bdbfa4927f923U, 0xeaeae5c582ca23a8U, 0xf31eab879081ce54U, 0x9303c89e821ce44eU,
  0x1e99b52c4a2838f9U, 0x4ddd3e0debffd26U, 0x221702acd0e6221fU, 0x4609c8ed5509377fU,
  0xf7f3e9171503e0ffU, 0x20a02e13fa0f97edU, 0xefddeea2db79072aU, 0xf221f62620c03825U,
  0xdd92181331d3707U, 0xfd48d303f7f1edbfU, 0xf353a5d1ac0f3ebU, 0x1afb3201d5f402e0U,
  0xe000ebdfbbeabf81U, 0xf5fec61ae2f90c10U, 0xfdcef2dd08a90dfcU, 0xff7f1e1524eddd2eU,
  0x211f05ecf01cf0eeU, 0x2318a8e09a37f60bU, 0x1f4aa4090b81fde7U, 0xf606f4ecf0252a01U,
  0xf9f64507ede934eeU, 0xf2d7ee0b1ccbf112U, 0x2b4b152c0ef905d2U, 0x2c3ae80c12fdf57fU,
  0xdbdea8ea99f884d5U, 0x3032fffea23ce804U, 0x5057b1f4fa26f4c1U, 0xf315f4e4c4542ec9U,
  0x15f27fe922af42faU, 0xfc0d2ce8143511e1U, 0xd703631af6a818edU, 0x1f1c42fcbdf09e81U,
  0xe90203f7290700e2U, 0xf213ac1de206b7dfU, 0xaa26a9b0811126d6U, 0xf7162226fefedfedU,
  0x1caecef2b218b6fcU, 0xda08bc0cec000e22U, 0x4d9ebd802811c0cU, 0xfc7d0d1338d70346U,
  0x2316faead916f0f9U, 0xe2e2011530d90100U, 0xef0d19cec933111aU, 0xfbec2fe2f0609ffU,
  0xed2509ef7f092d0eU, 0xf0cb1d451c0da981U, 0xe4c229f2f949fb03U, 0xec11fd362bb801deU,
  0x241f21bb284122f9U, 0xe8fb2c0c1f0bddeeU, 0xe737b427127d130bU, 0x86cf0012813bbaeeU,
  0xfd02c8114007cc17U, 0xfffffdb900000166U, 0x1c60000008fU, 0xfffffd7ffffffda5U,
  0xfffffc8bfffffff3U, 0x15300000a8eU, 0xfffffd65fffffeb7U, 0x12dfffffd26U,
  0x234000001b0U, 0xfffffeb3000000daU, 0xffffff7afffffd7bU, 0x164fffff979U,
  0xfffffadefffffd41U, 0xfffffd99000002f3U, 0xfffffc3a0000055eU, 0xfffffe2dffffff3bU,
  0xfffffb5ffffff37fU, 0x9a0fc8d10b8afd08U, 0x9dc79df909c1a5e6U, 0xcf0c01c80bfb0281U,
  0x88e2d20806b5a509U, 0x4f5a0b6f508fb07U, 0x91104050db0b30fU, 0x810c0500c704080cU,
  0x909da050306b006U, 0x495e2098109faa4U, 0x6ff09b3ddd00bc1U, 0xfbbe0bb3cffebc0cU,
  0x9d9b2ab03100708U, 0x9b7120dd10a04b8U, 0x4fe09e6da100fdaU, 0x5a307810501d00eU,
  0xe9d0ab6fe100f07U, 0xc7c2970d060901fbU, 0xa150b0aa8980ff8U, 0x1a08058186f50dccU,
  0xc80f0aff011a129aU, 0xa20989050b0afe09U, 0xc0806bf1181c31aU, 0xfb0f0a87f3f59da8U,
  0xb69f8c08ffc30609U, 0xf3080ce306cb0105U, 0xd5e9d005030be20eU, 0xe807810b06ff08e9U,
  0xe2050804ffbdf2deU, 0xe91104010dd7fa0aU, 0xd2cfb5b708ffebc8U, 0xa0ec6100dfacbd2U,
  0xf281c409fbbff602U, 0x15be2ed1d99effe7U, 0x98188113a32b0225U, 0xcf96ff1212f71d21U,
  0x1b0e23be031aa610U, 0x109e1c15c9130397U, 0xed9100a141812a4U, 0x23b58121ed0511fdU,
  0x121013b9ffee18b0U, 0xfffffeff00000242U, 0xce000001ccU, 0x6effffff77U,
  0x198fffffe50U, 0xfffffacdffffffb8U,
};


ai_handle g_hgr_model_weights_table[1 + 2] = {
  AI_HANDLE_PTR(AI_MAGIC_MARKER),
  AI_HANDLE_PTR(s_hgr_model_weights_array_u64),
  AI_HANDLE_PTR(AI_MAGIC_MARKER),
};

